/res1/conv1/Conv_param_0 36.488693 23.033491 20.126673 
/res1/conv2/Conv_param_0 12.651593 23.528948 12.580354 
/res1/downsample/Conv_param_0 142.728394 415.653229 93.185310 
/conv1/Conv_param_0 93.730301 163.803024 102.712166 120.658417 
/conv_head1/Conv_param_0 165028.171875 31526.703125 71117859488530432.000000 109.222229 
/res1/conv1/Conv 127.330597 
/res1/conv2/Conv 58.203426 
/res1/downsample/Conv 127.330597 
/conv1/Conv 15.629392 
/conv_head1/Conv 13.547235 
