pred/MobilenetV2/Conv/Conv2D_param_0 163.047836 59.460560 80.936089 6700720998395832621733557305344.000000 244.658112 7.660713 259.706635 154.873520 51.864986 104.537415 21.211285 332.899536 19.417919 39.306332 20.755919 272.402802 109.589378 116.963585 4337447477494939648.000000 6355958928695222866376262680576.000000 385.425781 51.481800 298.304901 52.804249 
pred/MobilenetV2/expanded_conv/depthwise/depthwise_param_0 93.269287 91.203903 267.318756 8.485559 307.952850 136.900208 27.568916 493.629120 3481.521240 141.710190 241.241714 24.256901 485.101654 270.104767 204.839233 36.070354 51.769096 51.330750 2.956806 4.619714 71.297035 22.041464 36.312931 263.989105 
pred/MobilenetV2/expanded_conv/project/Conv2D_param_0 21.667107 23.112549 15.511748 24.350576 34.774334 23.793631 7.418468 33.402390 9.287951 20.128563 26.164158 36.336506 18.441673 10.554604 11.692971 20.195448 
pred/MobilenetV2/expanded_conv_1/expand/Conv2D_param_0 192.994308 577.345886 270.320374 293.552368 4260.424805 376.237823 2168.741943 605.375549 2673.070312 125.969940 603.293823 268.481628 1375.677490 935.284485 2049.110840 1633.921875 865.452087 1172.655884 764.470154 2640.861816 348.976868 1589.891113 1140.766113 358.944763 786.881836 785.128723 8299.882812 2611.229980 610.553406 1014.173462 338.457886 202.920593 2407.734863 4005.924072 757.385498 714.598938 1609.964844 236.982407 663.948547 1766.039795 192.895035 1554.131592 914.643616 3467.320557 894.577576 967.851929 1914.484985 2616.974609 1124.505981 458.996185 1220.621338 805.212708 5931.324219 3686.879150 591.693115 760.052734 3251.549072 1177.961914 695.951782 1780.341431 1689.239502 2762.678223 3079.312256 705.969666 2038.380981 234.193420 384.615906 951.624878 327.221283 1708.606689 348.940918 816.876587 350.889099 641.037109 1041.855225 2228.100098 1498.473877 691.241760 3018.001953 1960.106567 1843.888428 3536.734131 569.937195 1371.947510 1548.621704 565.477539 2994.250977 736.772766 1831.070679 217.261932 201.457352 1721.821899 1457.479248 1568.889160 2428.036377 3230.643799 
pred/MobilenetV2/expanded_conv_1/depthwise/depthwise_param_0 1388.674805 637.509033 841.757812 989.372742 152.370956 446.656219 328.731689 347.143097 76.862358 1259.861084 416.420074 963.435486 10.529789 424.896423 84.619957 248.808563 254.351196 275.067932 332.825775 88.709381 275.669830 28.892822 326.535919 1345.135864 327.955688 31.436712 16.468430 131.482224 554.333130 404.339203 336.713531 452.970154 65.457619 100.046471 216.533737 672.666809 177.155060 436.718597 269.002197 112.013283 533.903809 330.145447 476.783234 151.282898 393.707764 19.752146 26.623163 105.466064 363.711731 646.334900 205.612091 41.059490 60.044918 58.404224 325.285187 305.474274 64.311737 406.715118 291.640930 244.803741 341.389893 186.992386 237.092896 374.494446 188.242157 1180.063477 574.900574 330.624084 948.398804 276.338165 287.888031 355.316254 330.269104 178.881470 332.392822 291.397095 49.015770 414.923431 106.958313 291.602814 165.574127 101.691742 180.113312 229.542328 207.698990 263.030212 51.733654 282.135284 232.906174 1039.699463 481.240692 358.612244 181.095169 27.849205 247.858383 20.443710 
pred/MobilenetV2/expanded_conv_1/project/Conv2D_param_0 99.037056 84.366402 88.613022 66.987366 70.540619 73.201561 78.537964 66.953003 56.395149 82.113884 56.991802 52.770912 98.282753 58.930988 67.722847 72.992569 76.388557 71.570305 78.421661 62.255245 40.829994 93.678795 51.690216 71.057312 
pred/MobilenetV2/expanded_conv_2/expand/Conv2D_param_0 265.941895 291.608246 406.950348 2797.655762 1003.962036 724.693298 12074.977539 760.689758 1504.043213 592.702454 811.462341 742.216553 305.879272 564.444336 416.064575 605.838196 1323.668335 433.595581 743.002808 4258.137695 1917.326416 611.797302 1853.446167 473.345734 1439.654175 887.657288 336.064911 4109.978516 1170.575684 4524.299316 3071.815186 1723.636841 528.294678 473.568970 6666.767090 641.090576 572.020630 842.736328 1466.176636 1364.051392 222.457626 391.726471 696.250061 480.776703 1305.836060 901.262512 963.543945 1020.013916 754.539551 1339.564697 4091.923096 732.410828 316.164612 1284.445557 864.295593 386.141846 560.541504 1395.693115 1573.853516 1493.923950 255.374329 371.903992 642.023926 360.425720 263.871216 525.118408 9058.827148 796.058167 691.377258 384.982788 194.216431 524.669983 670.938843 932.231506 1081.149536 1294.531250 1812.584839 425.872131 810.609253 499.738708 1690.666992 3911.820312 1472.826294 1213.952637 932.064819 2228.424561 1753.496460 745.847595 496.839691 499.709106 507.294495 479.377136 902.897827 1628.194824 2922.920166 1523.612305 342.670349 434.713013 1512.962524 110.957939 698.067871 1768.500366 919.333252 339.690155 509.211731 1713.639771 1736.743042 2134.267334 1378.749878 2059.330811 319.164764 671.139404 1173.561401 1086.607300 1283.614380 618.706482 1805.547241 429.417053 2399.189453 875.521790 316.104370 1346.671997 6129.307617 1028.539795 976.120911 3835.226562 1380.026611 1974.095459 1501.752563 469.497864 968.574707 882.636414 1450.548218 477.759735 488.682800 500.895111 997.823425 1620.879883 2890.037109 833.933228 773.319153 750.812683 1103.520020 1418.867065 
pred/MobilenetV2/expanded_conv_2/depthwise/depthwise_param_0 181.117630 384.901306 34.046268 77.649811 133.661392 91.648651 21.089605 570.645630 65.189262 193.053955 66.586151 99.569344 32.562202 56.163589 346.833313 94.175461 92.941765 229.198792 109.641586 24.176842 70.564613 195.143829 68.137360 378.486511 81.096939 70.774216 223.641953 67.131104 124.357117 40.293224 36.220539 47.199154 574.486816 210.959824 18.586828 246.423416 155.280838 108.747375 100.938110 98.189270 497.233032 26.625813 114.660080 328.714478 83.677605 519.103577 208.470596 143.078812 70.131920 95.051765 51.424713 64.972847 220.625519 167.764725 257.870117 462.280670 243.352509 66.054260 163.542297 135.680893 209.762650 41.106377 137.778625 147.765503 165.405655 476.806519 20.489820 272.603729 224.422821 170.183289 464.055054 112.705627 305.684326 65.596725 263.206177 61.869049 166.749191 169.064056 78.159164 69.804100 106.597290 30.763849 118.305763 95.562210 140.985779 150.626740 136.139618 114.894615 86.588692 197.253647 46.775658 64.229294 97.906136 148.788071 63.992043 182.544525 151.787231 271.327545 79.215691 550.265259 102.032639 140.211136 112.419945 132.519424 419.313080 73.480438 266.937347 130.117996 84.965546 52.562111 59.860371 79.028419 72.416069 84.305519 95.053749 363.827454 39.245899 129.023148 39.309875 100.208214 396.182159 100.681534 52.134953 76.337746 124.260368 24.404495 210.278854 68.913048 155.180908 202.090866 84.224899 153.223053 110.021507 48.774487 207.780365 115.673492 72.135666 197.798187 81.456604 192.997086 47.181904 76.318970 73.305717 29.642654 
pred/MobilenetV2/expanded_conv_2/project/Conv2D_param_0 76.576164 60.496910 99.537003 69.131287 74.302856 80.657227 54.208294 51.191940 59.918324 68.768410 57.709641 65.559937 40.743771 112.122368 83.860924 54.967964 52.522053 36.218437 81.269341 73.598137 45.392384 111.917656 68.767220 133.283936 
pred/MobilenetV2/expanded_conv_3/expand/Conv2D_param_0 789.066650 1923.002075 1647.178589 749.711792 1426.913452 1325.781494 1134.328491 948.231445 1610.076050 920.297852 774.750000 1680.619629 506.580139 1325.721191 1623.287109 1475.868042 2679.633789 1274.510742 1225.188721 40707.496094 492.885590 2581.746094 1132.218018 356.873352 766.682556 810.462646 1405.743530 555.052124 3422.575195 993.064453 1050.501465 555.067810 907.420166 1022.006226 888.757812 384.756531 1745.701172 1028.055176 441.408356 825.115295 1599.391113 760.047424 2205.465576 633.403687 1355.142212 1285.184204 2498.634277 589.294617 1490.291382 589.640930 1284.095459 640.791016 2125.766602 4154.072754 1050.212769 508.091339 829.053406 555.334839 720.155273 2268.537109 1962.612549 1903.570679 806.128662 348.767517 1205.944824 568.859131 1008.882629 822.289185 888.989136 18973.880859 4163.819824 487.330963 1619.251465 843.001221 703.927246 489.180389 865.580811 1285.036865 847.052368 4564.587402 1947.184082 954.395874 2131.413574 1642.059937 1381.324707 1273.995972 798.053772 1683.757935 454.092743 2059.302734 1745.639160 3108.777832 1802.580688 454.883759 234.585403 2375.378174 1470.556030 5573.306641 2188.867920 2074.589355 3979.687744 2673.344238 1203.257690 573.420288 56639.019531 788.546326 1569.885620 5156.587891 1081.596924 738.020813 15178.721680 1039.003296 7099.395020 875.779053 1003.678894 516.438660 5889.721191 2073.559326 1951.303101 3102.147949 1530.818970 798.432556 1271.727051 1989.994629 2495.025391 2577.932861 1009.132568 1641.203979 435.991882 2261.399902 782.239868 2118.389404 2002.398926 2314.025635 1564.783447 955.880737 3123.611572 853.336975 1536.635254 1685.514404 5829.011230 372.100647 686.462402 1128.408691 
pred/MobilenetV2/expanded_conv_3/depthwise/depthwise_param_0 417.812317 196.236313 211.988724 303.448914 136.968277 174.204575 411.899902 59.873207 385.584961 320.336670 535.025818 129.653412 378.158173 470.341339 403.114380 562.636536 208.140686 281.408234 419.373840 6.488696 496.974121 377.269073 242.051239 1113.779297 600.032715 857.482605 566.539246 990.104614 137.906647 197.409210 264.892212 820.345093 455.390808 240.430023 241.652420 816.736023 210.899002 289.270599 432.216614 982.998596 315.476105 423.483093 115.764458 836.846252 340.126984 400.659882 172.916748 736.813416 212.604080 1314.499756 178.645126 328.111938 361.650085 219.334579 341.108337 605.060242 520.705261 393.766693 899.765625 387.149719 91.766121 383.419678 382.686279 837.115479 388.334198 643.492126 349.105804 406.015350 392.871887 19.361803 142.419617 1070.915039 153.568161 398.198517 550.606567 458.762268 471.818726 322.161377 497.591492 64.362038 109.543404 422.231720 347.888184 581.272095 136.720947 454.106445 329.602203 138.640839 675.808655 158.402283 182.243805 314.043365 118.746529 639.517212 1126.895874 356.541534 253.524933 56.639568 219.545349 386.901123 65.346703 220.186157 135.278091 716.128052 7.248658 612.819702 253.726608 57.474190 252.812271 362.422882 21.009319 486.825226 38.775356 435.779633 297.875427 910.755859 50.570610 156.855011 108.768105 96.449036 343.015930 419.060455 422.178558 115.631531 121.088623 159.226089 373.315094 268.239380 969.718140 127.666206 201.510818 424.516266 260.979950 110.956802 243.241272 320.603455 76.336433 292.059235 190.420822 457.363220 54.888348 930.180725 513.672363 440.218964 
pred/MobilenetV2/expanded_conv_3/project/Conv2D_param_0 83.353859 104.748436 89.115837 77.499985 71.822830 78.857803 79.359177 86.032173 104.527885 86.088547 73.459900 67.625168 91.533455 73.517082 80.939934 72.490837 76.945702 78.978813 63.579491 75.912926 62.914246 70.978790 70.087112 97.083382 
pred/MobilenetV2/expanded_conv_4/expand/Conv2D_param_0 1980.470459 3358.958252 1803.113037 4684.784668 1911.814819 3392.157959 1344.011108 2989.938965 3453.551514 4867.520020 2199.851562 1029.067627 1637.368652 4895.118164 1882.296509 1760.320068 2520.556396 2315.411865 2090.802734 1837.611694 4380.390625 875.511169 2182.670654 1103.799561 4268.056152 2627.262939 2884.351318 2718.337646 2621.032471 2063.874512 4707.881836 2198.512451 6062.374512 1688.319580 3641.321777 2794.479736 1313.480103 894.926941 4683.824707 1380.359619 1522.983032 2911.256592 3638.700195 2417.178223 5717.305176 3681.427002 886.218445 3650.956543 2760.906006 2018.894043 3472.549805 3161.492432 4132.784180 3622.519043 2682.194336 3616.944092 29754.177734 1196.782959 2510.056396 4599.126953 2135.188965 3113.540039 3306.436035 1575.246704 1268.036621 3576.733887 1704.309326 6560.955078 1227.688232 8775.845703 2327.468994 4683.166504 2023.002563 1901.843750 1122.022949 2995.416992 6729.367676 1880.573853 4208.327148 3374.843018 1138.683960 719.381409 3095.831055 5628.755371 963.339661 2064.683594 1943.659302 797.919983 3386.493652 3389.733154 1379.905029 1065.733276 4472.297852 2003.098511 2788.315918 2082.776611 2098.171631 1490.964233 4633.554688 4337.048828 1472.484619 3818.149170 1377.678711 2738.280518 4696.854980 1577.475708 4696.303711 1672.305664 3235.547607 1001.371338 1524.638184 4678.200684 1033.466064 1206.000000 1154.052490 3140.100342 849.667480 11772.239258 2179.079590 668.047729 3065.764893 2862.818848 1959.464478 1009.505249 1976.126465 4233.950195 2477.327881 5570.342285 1991.369385 3878.503662 1983.363403 2705.581299 3627.561279 3468.562256 1129.319092 6640.744629 4050.359863 320.610962 4973.286621 2349.972900 1251.549927 3050.858154 15375.691406 17158.802734 
pred/MobilenetV2/expanded_conv_4/depthwise/depthwise_param_0 144.518036 83.047791 204.910706 80.925682 700.099487 142.940750 287.263062 55.384789 48.748268 59.654152 76.381500 163.935669 61.264496 66.811905 132.274521 113.782120 391.498230 95.696236 227.235245 436.935150 72.352707 116.509720 125.087471 223.518311 74.499306 220.129349 79.354095 70.281944 87.400452 117.455925 70.678307 44.663719 28.261475 613.780396 126.443153 294.345428 168.172897 164.421188 42.659996 208.632278 456.615692 49.225941 64.256203 80.979309 23.994366 70.463600 495.833160 112.831932 77.645226 84.822014 178.622482 87.295212 105.984154 49.488461 136.193130 81.298180 11.035644 382.176666 120.117989 85.244301 113.628151 134.424255 187.110321 193.033127 256.416992 113.155243 135.755814 44.079094 494.268372 25.257298 239.917557 56.627277 418.102142 78.898369 153.594315 104.754570 36.844810 110.969025 99.797852 139.174896 294.086029 687.803650 114.253792 18.843351 199.885208 47.765514 168.899521 995.888733 586.721252 27.878618 413.966003 284.388977 76.934662 101.355820 50.863544 149.828796 105.705788 278.379852 51.003853 53.415001 372.198608 91.741196 130.302505 75.632225 134.396606 239.069290 107.967751 50.458218 29.081535 680.012329 179.329666 37.105869 416.920105 104.454956 111.787468 49.472820 51.210548 72.696136 102.441444 1558.113770 99.911293 127.156921 168.371033 92.939690 95.116982 107.228401 151.458679 36.471302 81.690300 170.474777 187.826431 143.167892 138.430557 101.470451 529.249084 91.902725 74.432892 420.039551 124.039948 157.467529 374.950012 141.818192 6.677213 15.287212 
pred/MobilenetV2/expanded_conv_4/project/Conv2D_param_0 214.353210 282.951172 311.112366 318.122711 387.985260 215.145630 335.591888 256.210571 213.111542 216.719833 265.454926 311.377747 269.632782 186.830734 217.564697 358.225159 212.018860 290.682831 223.116226 224.839340 192.595901 313.673370 374.142975 189.670807 221.379761 250.723557 268.219604 230.297043 341.178650 267.497192 216.639282 141.729187 169.321808 232.867508 244.048828 268.630157 229.951477 242.354156 313.638336 299.495270 257.954315 306.697174 256.662231 257.084076 211.136505 213.219513 231.753372 304.836670 
pred/MobilenetV2/expanded_conv_5/expand/Conv2D_param_0 714.377014 459.754578 1228.270264 601.556763 503.845215 1114.616821 698.720154 585.047241 283.669952 433.486359 1337.387329 771.340210 539.452087 610.795593 697.173157 516.959717 714.355591 524.397766 3097.074463 581.641785 414.786224 830.543945 240.531662 1239.934204 403.236145 349.637939 531.878479 777.460449 658.367737 264.044556 879.690369 266.530579 403.123230 676.221558 698.894836 242.725266 491.369843 342.120728 487.802765 450.094421 1037.796631 299.189941 498.579285 1692.162109 1285.137939 529.626343 450.151855 1270.453857 600.397949 675.935852 932.824097 1532.102539 371.840881 723.985168 671.913208 1143.290039 1291.670654 444.864044 995.876404 1113.748901 714.559998 748.963684 521.376465 1493.075562 563.222900 653.217224 408.144867 666.019714 276.912170 893.522034 1675.163696 408.182922 679.423523 1405.579102 510.210693 1258.885010 1161.650146 859.457092 655.996826 1177.829956 864.948730 653.557190 747.473328 536.604553 1617.266846 1272.896240 1231.278442 1403.562256 407.681152 869.517822 588.780090 554.841614 488.085358 788.511780 397.847198 414.236664 619.724365 631.307373 2286.346191 588.101807 442.828857 896.133545 174.883057 894.681824 470.031464 646.191956 1007.212891 580.035706 322.574921 1150.400879 1030.927856 527.705872 757.108398 287.321350 335.753204 283.102905 585.838684 528.013123 462.942871 744.626160 725.893311 769.052246 948.490723 872.765503 1362.756348 600.320007 583.298706 524.871582 685.444031 486.639801 306.344788 1679.829956 404.935669 488.703003 551.025085 602.237549 676.531738 450.183197 449.135254 755.192505 570.666992 660.036926 372.109467 1668.831177 1149.794556 313.576843 459.887573 621.257080 351.520905 588.163879 357.621307 409.665985 450.033203 501.072174 526.243896 558.730042 651.239868 505.036163 588.226196 561.096313 582.848755 826.913269 231.954605 647.392639 675.913452 1080.417847 371.865601 1290.842651 415.539978 1147.595825 460.180817 480.730713 605.979858 1023.472900 1205.304443 588.272827 535.418884 1347.454102 606.579712 839.730530 577.019897 298.839874 516.026917 519.826050 548.047485 321.575165 755.770508 352.868835 369.518341 398.062317 1831.446533 727.804749 405.690460 486.429443 1355.350464 321.370697 833.020203 403.572083 454.972473 592.754700 563.410156 1437.948120 659.878113 472.753387 589.488098 1214.411011 484.027771 1043.448608 1063.146606 522.670044 278.846863 525.011841 528.262573 1407.367310 656.623047 405.603546 497.378357 609.336182 307.406006 1344.717529 375.454315 519.448669 419.089325 520.131165 380.626953 236.609451 420.540375 1086.892822 512.489075 1472.886719 418.366394 409.735138 446.529266 1508.055908 741.610718 886.610046 1569.477417 464.745209 224.888458 691.485901 776.531616 275.467957 718.841431 545.871948 666.310730 1248.152588 590.806091 336.210846 442.416473 324.342529 606.814575 1767.377930 1013.563293 743.218506 603.575134 551.243713 534.105835 1419.794312 611.127991 1215.403809 616.988159 443.964325 1425.519287 577.690247 558.843018 563.304504 573.695068 509.296967 1270.653442 388.390503 477.399200 370.475433 675.014465 1593.266113 478.906586 640.096741 846.298157 1046.059814 449.605774 430.390320 1314.264893 398.916534 403.076508 522.563782 370.257416 837.825134 739.210388 283.923981 
pred/MobilenetV2/expanded_conv_5/depthwise/depthwise_param_0 179.271652 81.344391 78.262863 21.270861 96.457619 143.959229 221.914139 304.519409 742.201294 208.325577 128.215240 54.277332 306.274872 72.211716 345.456146 198.987167 80.649620 112.188858 23.019260 321.817688 381.670776 94.887909 550.760254 143.147491 209.287659 417.287994 210.954330 90.606567 102.770294 305.654114 76.814880 416.023865 490.739838 69.005020 143.027542 848.880005 229.545731 437.102051 202.641861 363.487946 139.159012 306.796448 108.718483 99.568779 74.278297 89.545082 291.561035 86.111649 298.920959 108.422623 123.878540 118.575424 353.176453 224.519287 270.988068 46.483356 47.118732 180.032211 88.978180 140.770691 111.189133 188.978104 98.290192 92.835251 316.217865 81.791016 185.145065 74.957672 440.550629 106.699158 42.373451 96.873878 159.424774 79.938049 67.999199 93.615486 149.253464 59.318836 175.061356 126.108704 88.740135 164.849350 256.537598 301.092346 50.887173 181.524887 78.455658 170.923859 407.717865 62.574219 88.105408 163.389023 185.781311 56.578987 318.515778 240.095856 154.704636 388.725830 78.933479 139.931717 67.209221 79.465790 553.658081 107.349373 318.068695 329.414032 188.617981 283.992920 363.269440 108.680527 21.825842 139.164139 268.801666 251.390625 356.547913 535.592773 122.135742 308.850189 81.250114 193.681732 230.713806 144.624161 89.092606 140.114746 104.843857 176.406433 405.724701 293.480896 76.446114 109.204117 279.666260 37.432049 93.316338 150.915756 206.892502 213.120255 91.638824 302.456146 296.678436 256.262787 333.491241 77.194115 289.972534 20.474409 61.380535 732.084290 225.133499 228.166092 409.322418 414.608948 406.427368 406.371521 304.872864 100.644638 157.815155 210.717545 141.828125 92.032768 400.582153 69.769417 241.614853 56.669491 535.951843 111.500191 195.669632 88.498123 303.011841 97.757149 215.949265 89.668282 85.212868 90.584236 144.463776 83.072586 129.682068 105.697701 261.101013 57.491249 53.484219 244.644348 249.067993 337.265472 107.988007 211.183533 93.402962 184.257523 46.072746 286.809845 100.086998 183.098801 86.965172 165.351883 439.798767 250.057205 84.168396 205.252350 282.302429 493.251221 148.374512 214.617783 74.999123 88.543915 345.837921 81.907806 154.738007 171.912338 269.498413 59.216320 67.722206 274.542694 319.386444 119.020447 227.540390 42.027122 274.266724 282.856476 85.040077 160.977509 436.923187 130.311661 348.523285 265.835022 86.660080 254.781738 376.665314 765.990234 502.740356 92.396347 85.151314 85.517387 315.122681 282.550629 323.500610 76.532150 96.399673 204.331528 80.430176 198.303024 684.003418 141.206528 112.991188 428.336334 81.771065 96.106964 242.167419 156.123566 60.174957 267.063110 602.172363 249.118134 197.337830 95.201523 250.476746 61.334145 203.999130 98.692909 212.054016 68.339882 110.212624 112.615059 291.733459 150.438766 55.731758 148.695587 132.290100 134.885269 280.718842 410.712952 92.041283 254.328751 91.836830 113.439896 195.459137 68.504906 95.216164 61.481937 136.623810 83.648460 113.621567 349.999115 101.043121 487.226929 340.183777 466.735809 542.407104 67.931618 271.587067 121.514122 
pred/MobilenetV2/expanded_conv_5/project/Conv2D_param_0 482.141937 363.979767 256.546814 208.093918 405.389465 509.043671 365.907623 328.479828 347.352905 247.440384 319.697571 310.973633 376.082916 328.264099 520.005432 348.051605 245.351944 521.636108 235.151794 361.740906 445.727203 302.204346 164.797989 291.243530 401.026154 398.429443 524.073364 269.375885 291.288544 278.848846 312.857666 391.035767 292.347076 373.647583 286.892670 710.365967 392.232361 304.575226 356.106171 415.499268 335.445984 245.311996 351.863892 334.048126 273.262207 411.409576 393.215576 272.367218 359.973114 414.999023 595.328430 212.108795 411.089172 326.923737 461.051514 425.879333 220.650131 249.039810 257.492004 523.140015 480.616302 308.577637 296.975952 285.858368 349.861633 431.814819 403.308044 245.214600 400.963379 314.025513 277.792816 536.428101 272.510040 384.487732 403.480865 301.647552 339.965363 290.892059 339.489929 456.161957 292.820099 298.565002 493.263275 251.486160 478.314392 593.061218 243.561111 350.865143 383.300385 383.118591 383.356262 372.116669 337.376221 609.884521 244.390396 335.981689 
pred/local_head/detector/Conv/Conv2D_param_0 179.493378 180.762878 175.391052 442.730286 110.834282 156.067261 106.791245 259.170868 230.749298 221.331696 187.136749 160.899612 116.294876 185.796417 117.686508 73.752464 135.122162 180.055023 170.843491 309.388641 157.844315 207.513489 305.259338 174.553604 108.344063 176.625397 135.650757 168.273682 170.417908 176.690491 257.790466 386.995697 480.202728 99.112427 144.258194 248.664749 134.390518 112.997742 189.785110 387.593994 137.984756 153.960663 214.135681 195.582260 123.436325 161.060471 141.602234 148.100998 209.970184 155.381622 338.243774 196.288208 123.031509 165.959686 145.292313 172.703293 152.157608 169.476364 395.467590 221.789307 135.074005 178.871582 141.264191 288.896576 299.662384 205.088181 288.319275 144.999222 84.798309 166.264603 145.986526 278.868195 401.733154 195.267303 144.914749 215.493042 210.678635 160.532623 511.343994 98.630150 255.416916 96.562836 142.541916 147.106415 172.448013 195.298569 427.954987 119.562469 160.622009 151.556946 118.926262 152.810974 109.009979 222.857407 127.667297 155.502213 138.262604 442.361725 267.174866 123.154457 213.061707 147.200974 135.350082 160.478027 272.237183 223.362854 159.692017 159.000046 172.758835 110.701042 136.445847 541.165649 235.339737 364.067993 367.133240 371.074402 109.460342 138.647614 374.647980 96.481651 120.579430 215.955978 136.588913 377.769104 193.630508 190.730347 97.802277 220.523804 
pred/local_head/detector/Conv_1/BiasAdd_param_0 265.623901 282.031494 290.003235 293.350525 249.476822 326.915649 253.370178 237.633728 260.403107 267.280396 342.750397 322.878784 276.901825 354.390106 274.688965 272.737213 337.918457 438.945312 459.377686 511.777954 394.732361 463.824982 378.183075 317.812195 346.858582 389.195953 344.655365 404.477234 357.496643 334.030396 349.503906 338.167694 326.968323 359.845734 358.891022 407.712585 344.392426 413.484558 328.019745 273.461975 329.866882 375.595276 464.476624 436.128326 358.108887 332.738831 339.175690 286.067627 297.356079 329.333252 383.260101 287.300140 277.728577 361.328430 293.768646 283.056152 231.271530 308.123291 315.558075 323.598602 331.056885 386.643250 242.222092 235.881577 122.630936 
pred/MobilenetV2/Conv/Conv2D 127.031013 
pred/MobilenetV2/expanded_conv/depthwise/depthwise 21.401794 
pred/MobilenetV2/expanded_conv/project/Conv2D 22.749584 
pred/MobilenetV2/expanded_conv_1/expand/Conv2D 1.561792 
pred/MobilenetV2/expanded_conv_1/depthwise/depthwise 21.615225 
pred/MobilenetV2/expanded_conv_1/project/Conv2D 21.349092 
pred/MobilenetV2/expanded_conv_2/expand/Conv2D 4.993432 
pred/MobilenetV2/expanded_conv_2/depthwise/depthwise 21.171835 
pred/MobilenetV2/expanded_conv_2/project/Conv2D 21.999155 
pred/MobilenetV2/expanded_conv_3/expand/Conv2D 2.687186 
pred/MobilenetV2/expanded_conv_3/depthwise/depthwise 21.317596 
pred/MobilenetV2/expanded_conv_3/project/Conv2D 21.213278 
pred/MobilenetV2/expanded_conv_4/expand/Conv2D 5.722619 
pred/MobilenetV2/expanded_conv_4/depthwise/depthwise 21.433538 
pred/MobilenetV2/expanded_conv_4/project/Conv2D 22.362309 
pred/MobilenetV2/expanded_conv_5/expand/Conv2D 27.118984 
pred/MobilenetV2/expanded_conv_5/depthwise/depthwise 32.882381 
pred/MobilenetV2/expanded_conv_5/project/Conv2D 21.213278 
pred/local_head/detector/Conv/Conv2D 30.038706 
pred/local_head/detector/Conv_1/BiasAdd 21.182180 
